unsigned char model_tflite[] = {
  0x1c, 0x00, 0x00, 0x00, 0x54, 0x46, 0x4c, 0x33, 0x14, 0x00, 0x20, 0x00,
  0x1c, 0x00, 0x18, 0x00, 0x14, 0x00, 0x10, 0x00, 0x0c, 0x00, 0x00, 0x00,
  0x08, 0x00, 0x04, 0x00, 0x14, 0x00, 0x00, 0x00, 0x1c, 0x00, 0x00, 0x00,
  0x84, 0x00, 0x00, 0x00, 0xdc, 0x00, 0x00, 0x00, 0x2c, 0x0a, 0x00, 0x00,
  0x3c, 0x0a, 0x00, 0x00, 0x64, 0x15, 0x00, 0x00, 0x03, 0x00, 0x00, 0x00,
  0x01, 0x00, 0x00, 0x00, 0x04, 0x00, 0x00, 0x00, 0xc2, 0xf4, 0xff, 0xff,
  0x0c, 0x00, 0x00, 0x00, 0x1c, 0x00, 0x00, 0x00, 0x3c, 0x00, 0x00, 0x00,
  0x0f, 0x00, 0x00, 0x00, 0x73, 0x65, 0x72, 0x76, 0x69, 0x6e, 0x67, 0x5f,
  0x64, 0x65, 0x66, 0x61, 0x75, 0x6c, 0x74, 0x00, 0x01, 0x00, 0x00, 0x00,
  0x04, 0x00, 0x00, 0x00, 0x98, 0xff, 0xff, 0xff, 0x0f, 0x00, 0x00, 0x00,
  0x04, 0x00, 0x00, 0x00, 0x08, 0x00, 0x00, 0x00, 0x64, 0x65, 0x6e, 0x73,
  0x65, 0x5f, 0x31, 0x31, 0x00, 0x00, 0x00, 0x00, 0x01, 0x00, 0x00, 0x00,
  0x04, 0x00, 0x00, 0x00, 0x5e, 0xf6, 0xff, 0xff, 0x04, 0x00, 0x00, 0x00,
  0x07, 0x00, 0x00, 0x00, 0x69, 0x6e, 0x70, 0x75, 0x74, 0x5f, 0x32, 0x00,
  0x02, 0x00, 0x00, 0x00, 0x34, 0x00, 0x00, 0x00, 0x04, 0x00, 0x00, 0x00,
  0xdc, 0xff, 0xff, 0xff, 0x12, 0x00, 0x00, 0x00, 0x04, 0x00, 0x00, 0x00,
  0x13, 0x00, 0x00, 0x00, 0x43, 0x4f, 0x4e, 0x56, 0x45, 0x52, 0x53, 0x49,
  0x4f, 0x4e, 0x5f, 0x4d, 0x45, 0x54, 0x41, 0x44, 0x41, 0x54, 0x41, 0x00,
  0x08, 0x00, 0x0c, 0x00, 0x08, 0x00, 0x04, 0x00, 0x08, 0x00, 0x00, 0x00,
  0x11, 0x00, 0x00, 0x00, 0x04, 0x00, 0x00, 0x00, 0x13, 0x00, 0x00, 0x00,
  0x6d, 0x69, 0x6e, 0x5f, 0x72, 0x75, 0x6e, 0x74, 0x69, 0x6d, 0x65, 0x5f,
  0x76, 0x65, 0x72, 0x73, 0x69, 0x6f, 0x6e, 0x00, 0x13, 0x00, 0x00, 0x00,
  0x4c, 0x09, 0x00, 0x00, 0x44, 0x09, 0x00, 0x00, 0x2c, 0x09, 0x00, 0x00,
  0x10, 0x09, 0x00, 0x00, 0xf0, 0x08, 0x00, 0x00, 0xa0, 0x08, 0x00, 0x00,
  0x10, 0x01, 0x00, 0x00, 0xf0, 0x00, 0x00, 0x00, 0xcc, 0x00, 0x00, 0x00,
  0xc4, 0x00, 0x00, 0x00, 0xbc, 0x00, 0x00, 0x00, 0xb4, 0x00, 0x00, 0x00,
  0xac, 0x00, 0x00, 0x00, 0xa4, 0x00, 0x00, 0x00, 0x9c, 0x00, 0x00, 0x00,
  0x94, 0x00, 0x00, 0x00, 0x8c, 0x00, 0x00, 0x00, 0x6c, 0x00, 0x00, 0x00,
  0x04, 0x00, 0x00, 0x00, 0x1e, 0xf7, 0xff, 0xff, 0x04, 0x00, 0x00, 0x00,
  0x58, 0x00, 0x00, 0x00, 0x0c, 0x00, 0x00, 0x00, 0x08, 0x00, 0x0e, 0x00,
  0x08, 0x00, 0x04, 0x00, 0x08, 0x00, 0x00, 0x00, 0x10, 0x00, 0x00, 0x00,
  0x28, 0x00, 0x00, 0x00, 0x00, 0x00, 0x06, 0x00, 0x08, 0x00, 0x04, 0x00,
  0x06, 0x00, 0x00, 0x00, 0x04, 0x00, 0x00, 0x00, 0x01, 0x00, 0x00, 0x00,
  0xeb, 0x03, 0x00, 0x00, 0x00, 0x00, 0x0a, 0x00, 0x10, 0x00, 0x0c, 0x00,
  0x08, 0x00, 0x04, 0x00, 0x0a, 0x00, 0x00, 0x00, 0x02, 0x00, 0x00, 0x00,
  0x02, 0x00, 0x00, 0x00, 0x04, 0x00, 0x00, 0x00, 0x06, 0x00, 0x00, 0x00,
  0x32, 0x2e, 0x31, 0x33, 0x2e, 0x30, 0x00, 0x00, 0x82, 0xf7, 0xff, 0xff,
  0x04, 0x00, 0x00, 0x00, 0x10, 0x00, 0x00, 0x00, 0x31, 0x2e, 0x31, 0x34,
  0x2e, 0x30, 0x00, 0x00, 0x00, 0x00, 0x00, 0x00, 0x00, 0x00, 0x00, 0x00,
  0x78, 0xec, 0xff, 0xff, 0x7c, 0xec, 0xff, 0xff, 0x80, 0xec, 0xff, 0xff,
  0x84, 0xec, 0xff, 0xff, 0x88, 0xec, 0xff, 0xff, 0x8c, 0xec, 0xff, 0xff,
  0x90, 0xec, 0xff, 0xff, 0x94, 0xec, 0xff, 0xff, 0xbe, 0xf7, 0xff, 0xff,
  0x04, 0x00, 0x00, 0x00, 0x14, 0x00, 0x00, 0x00, 0xd1, 0x6e, 0x70, 0x7f,
  0x2c, 0xab, 0x60, 0x4b, 0x3a, 0x7f, 0x81, 0xae, 0x68, 0x6b, 0xfc, 0xdf,
  0x28, 0xbb, 0xf1, 0x81, 0xde, 0xf7, 0xff, 0xff, 0x04, 0x00, 0x00, 0x00,
  0x10, 0x00, 0x00, 0x00, 0xff, 0xf3, 0xff, 0xff, 0xb8, 0xb1, 0xff, 0xff,
  0x46, 0x02, 0x00, 0x00, 0xcb, 0xeb, 0xff, 0xff, 0xfa, 0xf7, 0xff, 0xff,
  0x04, 0x00, 0x00, 0x00, 0x80, 0x07, 0x00, 0x00, 0xf8, 0xf1, 0x31, 0xf5,
  0xf1, 0xf7, 0x20, 0x04, 0x04, 0xff, 0x24, 0xef, 0x06, 0xf2, 0x27, 0xf8,
  0xfc, 0xf6, 0x29, 0xfe, 0xf6, 0x08, 0x20, 0xf6, 0x01, 0x04, 0x2e, 0x0c,
  0xf6, 0x10, 0x30, 0xf3, 0x08, 0x11, 0x22, 0xff, 0x01, 0x0d, 0x2f, 0x08,
  0x09, 0x01, 0x3b, 0x07, 0x04, 0x06, 0x3a, 0xf6, 0xf2, 0x05, 0x25, 0x02,
  0x05, 0x14, 0x34, 0xf2, 0x09, 0x0a, 0x3b, 0x07, 0xf5, 0x1b, 0x35, 0xf6,
  0x0b, 0x06, 0x24, 0xf1, 0x0a, 0x1d, 0x28, 0xfc, 0x10, 0x20, 0x38, 0xf3,
  0x07, 0x0c, 0x23, 0xf0, 0xf6, 0x0c, 0x21, 0x06, 0xfe, 0xf1, 0x29, 0x0b,
  0xea, 0x05, 0x23, 0x0a, 0x03, 0xee, 0x27, 0x09, 0xe5, 0xf9, 0x26, 0xfe,
  0xef, 0xfe, 0x3e, 0x03, 0xf0, 0xfe, 0x3e, 0xfa, 0xf2, 0x01, 0x38, 0xfa,
  0xfc, 0xe3, 0x21, 0x10, 0xfb, 0xe0, 0x21, 0x0c, 0xfd, 0x13, 0x29, 0xef,
  0xfc, 0x10, 0x1d, 0xe2, 0x0f, 0xfb, 0x36, 0x00, 0x02, 0x0c, 0x30, 0x00,
  0xf9, 0xfb, 0x33, 0xed, 0x03, 0xfc, 0x2d, 0x04, 0x00, 0xfe, 0x30, 0x08,
  0xfa, 0x0e, 0x3d, 0x06, 0xfa, 0x18, 0x2f, 0xf4, 0xfd, 0x14, 0x2e, 0xf7,
  0x02, 0x03, 0x2b, 0x05, 0xf8, 0x0d, 0x44, 0xfd, 0xf8, 0x09, 0x3b, 0x00,
  0xfa, 0xfe, 0x28, 0x01, 0xf3, 0x12, 0x35, 0x0b, 0x02, 0x0f, 0x35, 0xfb,
  0xfa, 0x13, 0x39, 0xf8, 0x07, 0x05, 0x3c, 0x0c, 0x05, 0x04, 0x39, 0xfd,
  0xf8, 0x11, 0x42, 0x06, 0x08, 0xff, 0x3a, 0x04, 0xf8, 0x0f, 0x46, 0xff,
  0xfd, 0x00, 0x3e, 0x08, 0x02, 0xf4, 0x33, 0xf2, 0xf6, 0x00, 0x37, 0xfd,
  0x05, 0xfa, 0x3e, 0xf4, 0x01, 0xfa, 0x49, 0x0d, 0xfb, 0xf7, 0x3a, 0xf6,
  0xf2, 0xfb, 0x24, 0x08, 0xe6, 0xda, 0x21, 0x05, 0xf3, 0x0b, 0x2b, 0xf7,
  0xfa, 0xfc, 0x24, 0xf0, 0x09, 0x03, 0x24, 0x00, 0xf2, 0xfd, 0x24, 0xf6,
  0x0e, 0x14, 0x26, 0xf7, 0x0f, 0x00, 0x29, 0xff, 0xf4, 0xff, 0x28, 0xfe,
  0x09, 0x01, 0x25, 0xf4, 0xfb, 0x0f, 0x35, 0x04, 0x04, 0x12, 0x35, 0xfd,
  0xf6, 0x0e, 0x27, 0x03, 0xfa, 0x17, 0x34, 0x05, 0x07, 0xfb, 0x25, 0xf6,
  0x01, 0x11, 0x31, 0xfc, 0xed, 0x13, 0x2e, 0x05, 0xfe, 0xfb, 0x34, 0xf3,
  0xfa, 0xf6, 0x24, 0x0c, 0xf5, 0x0f, 0x20, 0xf8, 0xf5, 0x04, 0x3c, 0xfc,
  0xfc, 0x02, 0x32, 0x05, 0xfe, 0xf9, 0x35, 0x0c, 0x01, 0xf4, 0x35, 0x0d,
  0xed, 0x03, 0x29, 0x06, 0xff, 0x07, 0x39, 0xf8, 0x05, 0x06, 0x2c, 0xfa,
  0xf8, 0xf7, 0x25, 0x02, 0xfb, 0x07, 0x41, 0x0e, 0x07, 0xed, 0x1f, 0x04,
  0xf8, 0xeb, 0x27, 0xf7, 0xe5, 0xe1, 0x0b, 0xf9, 0x02, 0x10, 0x27, 0xef,
  0xf7, 0xff, 0x40, 0xf4, 0x01, 0x00, 0x3b, 0xf1, 0x01, 0x07, 0x2b, 0xf3,
  0x02, 0xff, 0x44, 0xf4, 0x05, 0x03, 0x3b, 0xf4, 0x08, 0x16, 0x34, 0xf5,
  0x01, 0x05, 0x34, 0x0c, 0xf8, 0x07, 0x38, 0x01, 0xfa, 0x1a, 0x42, 0x02,
  0xf9, 0x0c, 0x41, 0x0e, 0x09, 0x01, 0x35, 0xfc, 0xfc, 0x03, 0x2a, 0x09,
  0xec, 0x08, 0x3b, 0xfb, 0x04, 0x07, 0x29, 0xf9, 0xff, 0x05, 0x33, 0xf9,
  0xf8, 0x04, 0x2a, 0x07, 0x03, 0xf9, 0x3c, 0x00, 0xef, 0xfa, 0x33, 0x04,
  0xf5, 0x00, 0x2d, 0xf8, 0xfa, 0x04, 0x31, 0x06, 0x04, 0x05, 0x44, 0x03,
  0xfd, 0xf7, 0x3f, 0x05, 0xf2, 0x08, 0x38, 0xfe, 0x09, 0xf4, 0x47, 0x02,
  0x09, 0xf9, 0x31, 0x05, 0xf8, 0xf8, 0x49, 0x0e, 0x06, 0xf4, 0x31, 0xfc,
  0xe9, 0xe4, 0x3d, 0xfe, 0xe3, 0xd0, 0x1d, 0xf4, 0x04, 0x13, 0x2d, 0xfb,
  0x0a, 0x01, 0x1b, 0xf7, 0x05, 0xf8, 0x24, 0xf3, 0x0a, 0xfa, 0x1d, 0x0a,
  0x08, 0xf9, 0x21, 0xf8, 0xf5, 0x04, 0x1e, 0xf4, 0xff, 0xfe, 0x17, 0xf4,
  0xfc, 0x07, 0x2f, 0x11, 0x02, 0x0f, 0x2e, 0x0c, 0xff, 0x07, 0x1e, 0xf6,
  0xf0, 0xfb, 0x37, 0xf7, 0xf1, 0xf9, 0x26, 0x06, 0xf5, 0x07, 0x25, 0x01,
  0xf9, 0x04, 0x31, 0xf9, 0xf7, 0x0d, 0x21, 0xfd, 0xec, 0x0e, 0x39, 0xfa,
  0x06, 0x02, 0x31, 0xfc, 0x0a, 0x17, 0x38, 0x02, 0x09, 0x03, 0x34, 0xf8,
  0x08, 0x17, 0x3d, 0x0d, 0x0c, 0x16, 0x31, 0x03, 0xfa, 0x08, 0x37, 0xfd,
  0xf3, 0x0b, 0x19, 0xfb, 0x00, 0xfc, 0x1b, 0xf6, 0x03, 0x01, 0x22, 0x0d,
  0xf5, 0xf6, 0x23, 0x0b, 0x02, 0x03, 0x33, 0xf4, 0x01, 0xe9, 0x22, 0x06,
  0xf7, 0xec, 0x26, 0x0c, 0xf0, 0xd6, 0x1b, 0xfb, 0xf8, 0x12, 0x3e, 0xe5,
  0x0f, 0x11, 0x2b, 0xf6, 0x00, 0x18, 0x28, 0xed, 0xfb, 0x19, 0x32, 0xf0,
  0x12, 0x19, 0x46, 0xf0, 0x0a, 0x16, 0x3e, 0xf4, 0xfb, 0x07, 0x38, 0x00,
  0xf8, 0x0c, 0x37, 0x05, 0xf9, 0x17, 0x41, 0x01, 0x03, 0x1f, 0x47, 0xf2,
  0xf6, 0x15, 0x37, 0xff, 0xf4, 0x01, 0x33, 0x02, 0xfa, 0x08, 0x38, 0x0c,
  0x03, 0x0f, 0x2d, 0xfc, 0xe9, 0x07, 0x2e, 0x0d, 0xee, 0x09, 0x2e, 0x0e,
  0xee, 0xfe, 0x2c, 0x03, 0xe9, 0xf7, 0x3a, 0xf8, 0xee, 0xff, 0x37, 0x03,
  0xf8, 0xf7, 0x31, 0xfd, 0xf9, 0xfe, 0x49, 0x03, 0x08, 0x00, 0x3f, 0x0a,
  0xf4, 0xfb, 0x43, 0x0b, 0xfc, 0x0a, 0x4b, 0xfe, 0x0d, 0x09, 0x43, 0x00,
  0x0b, 0x06, 0x45, 0x03, 0xf0, 0x04, 0x45, 0xfc, 0x06, 0xf5, 0x3b, 0xf2,
  0xfc, 0xd9, 0x39, 0xf9, 0xf6, 0xc6, 0x18, 0xfc, 0x07, 0x1a, 0xbb, 0x14,
  0x16, 0x0e, 0xa4, 0x0c, 0x15, 0x1d, 0xc2, 0x11, 0x08, 0x04, 0xc6, 0x03,
  0x14, 0x0d, 0xb9, 0x12, 0x00, 0x1a, 0xb4, 0x01, 0xff, 0x1a, 0xaa, 0x0c,
  0x02, 0x09, 0xa5, 0x01, 0xff, 0x03, 0xb2, 0x08, 0x01, 0x0f, 0xa9, 0x02,
  0xfe, 0x08, 0xc1, 0x11, 0x0d, 0x18, 0xa6, 0x02, 0x08, 0x15, 0x9e, 0xff,
  0x01, 0xff, 0xa2, 0xff, 0xfd, 0x17, 0xc1, 0xfe, 0xf7, 0x03, 0xa6, 0x03,
  0xfe, 0x00, 0xa5, 0x10, 0xf8, 0x02, 0xb8, 0x02, 0x02, 0xfb, 0xb3, 0x0c,
  0x01, 0x05, 0xa7, 0xfe, 0x05, 0x04, 0xb7, 0x0f, 0xfe, 0x17, 0xc8, 0xfe,
  0xed, 0xfc, 0xa8, 0x0a, 0xf8, 0x07, 0xa4, 0x0d, 0xfe, 0x0b, 0xd2, 0xff,
  0xff, 0x15, 0xcc, 0x07, 0xf2, 0x08, 0xaf, 0x05, 0xed, 0x03, 0xb7, 0x00,
  0xe9, 0xf6, 0xa8, 0xfc, 0xdd, 0xe5, 0xa6, 0xfe, 0xf4, 0xf9, 0xdd, 0xec,
  0xf5, 0xf9, 0xd2, 0xdc, 0x04, 0x05, 0xc8, 0xf6, 0x06, 0x06, 0xe4, 0xe0,
  0x0a, 0xf0, 0xca, 0xe0, 0x04, 0xf1, 0xd2, 0xef, 0xf5, 0x01, 0xe9, 0xe8,
  0xfe, 0xfd, 0xdb, 0xe6, 0xf4, 0xe9, 0xcc, 0xe5, 0x0c, 0xf8, 0xd8, 0xed,
  0x0d, 0xe9, 0xd6, 0x02, 0x0d, 0xe8, 0xc7, 0xf6, 0x03, 0xf1, 0xc0, 0xed,
  0x05, 0x00, 0xd8, 0x01, 0xfa, 0x05, 0xcf, 0xed, 0x06, 0xf0, 0xd6, 0x05,
  0xfa, 0x00, 0xcb, 0xf2, 0x0c, 0xee, 0xc5, 0x01, 0x07, 0xf5, 0xbe, 0x0b,
  0x0e, 0xff, 0xbb, 0xfd, 0x03, 0xfc, 0xd4, 0x12, 0xfc, 0x0a, 0xcc, 0x12,
  0x07, 0x05, 0xc8, 0x11, 0x10, 0x10, 0xc0, 0x1b, 0x0d, 0x11, 0xb2, 0x0f,
  0x01, 0xfe, 0xcd, 0x23, 0x00, 0xff, 0xc2, 0x13, 0x14, 0x06, 0xbe, 0x17,
  0x03, 0x20, 0xd3, 0x0d, 0x0e, 0x3c, 0xe9, 0x1a, 0xee, 0x0a, 0x3e, 0xff,
  0xf2, 0x00, 0x44, 0xf5, 0x09, 0x07, 0x3a, 0xfa, 0xf3, 0x00, 0x36, 0xf3,
  0xfa, 0x01, 0x43, 0x06, 0xfb, 0x03, 0x2b, 0x05, 0x0d, 0x14, 0x22, 0xf7,
  0x04, 0x05, 0x2c, 0xfb, 0xf7, 0x0b, 0x3c, 0xf3, 0x10, 0x19, 0x30, 0x03,
  0x09, 0x16, 0x24, 0x0d, 0xff, 0x1b, 0x36, 0xfe, 0x10, 0x10, 0x26, 0xf2,
  0xfe, 0xfe, 0x2a, 0xf1, 0xfe, 0x0b, 0x1a, 0xfb, 0x08, 0x14, 0x32, 0xf2,
  0x06, 0x05, 0x31, 0xf9, 0xf1, 0x14, 0x36, 0xf7, 0xf4, 0x0b, 0x49, 0xf9,
  0xf3, 0xf9, 0x3e, 0xff, 0xf2, 0xf9, 0x32, 0x0b, 0x04, 0xfd, 0x41, 0x07,
  0xff, 0xfb, 0x39, 0x0c, 0xf6, 0xfd, 0x35, 0xff, 0xfd, 0xec, 0x3f, 0x01,
  0x04, 0xf6, 0x2b, 0xfc, 0xf8, 0xf7, 0x4b, 0xfc, 0xf1, 0xfc, 0x3f, 0x03,
  0xfd, 0xf4, 0x20, 0x08, 0xe4, 0xd9, 0x23, 0x0a, 0x00, 0x00, 0xfd, 0xf6,
  0x09, 0xf0, 0xf8, 0xfd, 0x06, 0xf6, 0x0c, 0x06, 0xf0, 0xf3, 0xfe, 0x04,
  0xf3, 0x08, 0xfa, 0xf3, 0xf7, 0xff, 0x00, 0xf9, 0x08, 0x0c, 0x05, 0xfe,
  0xfe, 0xf6, 0x0a, 0x07, 0xf3, 0xf7, 0xfd, 0xf4, 0x06, 0x09, 0x08, 0xfe,
  0xfa, 0xf6, 0x01, 0xfa, 0xfc, 0x06, 0xfb, 0x02, 0xf3, 0xfb, 0xfa, 0xf3,
  0xf1, 0xfc, 0xef, 0xff, 0xff, 0x01, 0xf9, 0x0a, 0xfb, 0xfc, 0x0b, 0xf2,
  0xfe, 0x04, 0x0a, 0x02, 0xfe, 0xfa, 0xf5, 0x03, 0x07, 0x04, 0x00, 0xff,
  0x0b, 0xf5, 0xf2, 0x05, 0x01, 0xf5, 0xfc, 0xfb, 0x09, 0x0a, 0x04, 0xfa,
  0x01, 0x09, 0xff, 0x07, 0xef, 0x04, 0xfa, 0xf7, 0xfb, 0x00, 0x04, 0xf2,
  0x03, 0xf1, 0x09, 0x0b, 0x0b, 0xf8, 0xfd, 0x06, 0xf6, 0xf1, 0x03, 0xf0,
  0xf3, 0x0a, 0x07, 0xf7, 0xf1, 0xfd, 0x06, 0xff, 0x0b, 0x01, 0xc7, 0x0a,
  0x04, 0xf4, 0xbc, 0x0b, 0xf5, 0x01, 0xc6, 0xfe, 0xf5, 0xf2, 0xcc, 0x0a,
  0x05, 0xf1, 0xb8, 0x00, 0x01, 0xf5, 0xc3, 0x00, 0x0d, 0x02, 0xcc, 0xfa,
  0x0e, 0x01, 0xc9, 0xfd, 0xf2, 0xe2, 0xcd, 0xfa, 0x04, 0x00, 0xb9, 0x0c,
  0x05, 0xec, 0xbc, 0x06, 0xfb, 0x00, 0xb9, 0xf5, 0x00, 0xf8, 0xbc, 0x03,
  0x0d, 0xfa, 0xc5, 0x05, 0x10, 0xed, 0xce, 0xfa, 0x0b, 0xf8, 0xb5, 0x0b,
  0x11, 0xec, 0xbb, 0x03, 0x01, 0xf2, 0xb9, 0x0d, 0xfb, 0x01, 0xc1, 0x0d,
  0xff, 0xf2, 0xb8, 0x04, 0x05, 0xf0, 0xcf, 0xf7, 0x0d, 0x00, 0xbd, 0x07,
  0x08, 0xff, 0xc4, 0x08, 0x03, 0xfc, 0xb3, 0xfa, 0x08, 0x0a, 0xc1, 0x05,
  0x08, 0xff, 0xb8, 0x05, 0x0a, 0x09, 0xaf, 0xfc, 0x0a, 0x1e, 0xcf, 0x0e,
  0x0b, 0x2b, 0xca, 0x0d, 0x11, 0x32, 0xe2, 0x14, 0x02, 0x03, 0xda, 0x13,
  0x03, 0xf8, 0xd4, 0x12, 0x05, 0xfd, 0xd8, 0x09, 0xfe, 0x0c, 0xd2, 0x08,
  0xf8, 0x00, 0xc8, 0xfe, 0xf7, 0xfd, 0xe2, 0xf7, 0x0d, 0xfe, 0xd1, 0x00,
  0x0a, 0xef, 0xe2, 0xf5, 0xf2, 0xf5, 0xd5, 0xfc, 0x0e, 0xef, 0xc8, 0x0d,
  0x05, 0xe6, 0xd5, 0x01, 0x0d, 0xf3, 0xdb, 0x04, 0x0b, 0xf1, 0xd3, 0x06,
  0x10, 0xf0, 0xcf, 0x0e, 0x09, 0x00, 0xde, 0x05, 0xf8, 0x00, 0xc5, 0x06,
  0xfd, 0xff, 0xc7, 0xf9, 0xf7, 0xec, 0xd1, 0xfe, 0xff, 0xff, 0xcd, 0x01,
  0x07, 0xfa, 0xce, 0x00, 0xfd, 0x07, 0xcd, 0x0e, 0x0c, 0xfd, 0xc5, 0x0b,
  0x05, 0x00, 0xcd, 0xf8, 0x00, 0x06, 0xcf, 0x09, 0xff, 0x01, 0xc6, 0x08,
  0xfb, 0x0c, 0xbd, 0xfe, 0x0c, 0x14, 0xcd, 0x00, 0xf8, 0x13, 0xd0, 0xfa,
  0x0a, 0x20, 0xe2, 0x0c, 0x18, 0x32, 0xf5, 0x17, 0x09, 0xf8, 0xe2, 0x0e,
  0xf6, 0xfe, 0xd7, 0x0d, 0x01, 0x02, 0xe4, 0x0c, 0x03, 0xf7, 0xd0, 0x0a,
  0xfc, 0x0b, 0xdc, 0x01, 0xfa, 0xf7, 0xe1, 0xf4, 0xf5, 0xfe, 0xd8, 0xfe,
  0x0e, 0xfc, 0xd8, 0x02, 0xf7, 0xf1, 0xcc, 0x09, 0xfc, 0xf0, 0xd0, 0xfe,
  0x09, 0xef, 0xc7, 0x0b, 0x0a, 0xf0, 0xd1, 0xf9, 0x07, 0x01, 0xc4, 0xfd,
  0x0b, 0xf5, 0xc1, 0xfb, 0xfa, 0x00, 0xd2, 0xfb, 0x04, 0xf4, 0xcd, 0xf5,
  0xfe, 0xf2, 0xcf, 0x0b, 0x0e, 0xf5, 0xdd, 0x09, 0x09, 0xf3, 0xb9, 0x11,
  0xfe, 0xef, 0xc7, 0xf7, 0x0b, 0xee, 0xcf, 0xf5, 0xfb, 0xf6, 0xc8, 0x10,
  0x04, 0x09, 0xd2, 0x01, 0x0b, 0x0d, 0xc1, 0xf9, 0x0d, 0x05, 0xc5, 0xf4,
  0x04, 0xfb, 0xce, 0x10, 0xfd, 0x07, 0xcf, 0x0a, 0x0e, 0x09, 0xc9, 0xfc,
  0x15, 0x18, 0xd2, 0x0d, 0x07, 0x22, 0xf1, 0x13, 0x11, 0x11, 0xa3, 0x0e,
  0x01, 0x17, 0xab, 0x1b, 0x12, 0x0f, 0xb5, 0x04, 0x19, 0x18, 0xa2, 0x06,
  0x0d, 0x11, 0xa5, 0x0c, 0x0e, 0x09, 0x9b, 0x16, 0x00, 0x21, 0xb3, 0x08,
  0x04, 0x06, 0x9b, 0xfb, 0xff, 0x06, 0xa7, 0x0a, 0xfd, 0x08, 0xaa, 0x02,
  0x06, 0x17, 0xb0, 0x04, 0x01, 0x0a, 0xae, 0x03, 0x10, 0x08, 0x9a, 0x11,
  0x0c, 0x11, 0xa7, 0x09, 0xfb, 0x09, 0xab, 0x01, 0xfb, 0x08, 0x98, 0xfe,
  0x08, 0xfb, 0xa4, 0x0e, 0x0a, 0x04, 0xb4, 0x01, 0x02, 0x03, 0xa6, 0xff,
  0xfa, 0x06, 0xa8, 0xff, 0xf6, 0x08, 0xae, 0x13, 0xeb, 0x13, 0xb4, 0xfd,
  0x03, 0x19, 0x91, 0xfb, 0xf3, 0x14, 0xa1, 0x08, 0xed, 0x0b, 0xad, 0x06,
  0xfc, 0x0b, 0xad, 0x0c, 0xf1, 0x0f, 0x9f, 0x0b, 0xff, 0x0c, 0x9c, 0x03,
  0xe5, 0x0a, 0xa9, 0xfb, 0xe0, 0x00, 0x81, 0x0b, 0x03, 0xf7, 0xcf, 0x02,
  0x01, 0x02, 0xd9, 0x13, 0xf2, 0xf7, 0xcb, 0x0a, 0x05, 0x0a, 0xd0, 0xfd,
  0x03, 0xff, 0xc0, 0x09, 0x0a, 0xf4, 0xcf, 0x08, 0xfa, 0xf1, 0xd6, 0x06,
  0x0a, 0xf8, 0xe1, 0x03, 0x0c, 0xf7, 0xd6, 0x0c, 0xf5, 0xff, 0xc1, 0xf4,
  0xf7, 0xed, 0xc7, 0x0c, 0x04, 0xe7, 0xc7, 0xf7, 0x0a, 0xed, 0xcf, 0xfe,
  0x0c, 0xfd, 0xd7, 0x03, 0x09, 0xfc, 0xdc, 0x02, 0x09, 0xee, 0xc4, 0x0d,
  0x11, 0xfd, 0xc1, 0x0e, 0xfb, 0xf6, 0xc3, 0xf9, 0x05, 0xee, 0xbc, 0xfe,
  0xf9, 0xf4, 0xc6, 0xfc, 0x0f, 0xf9, 0xca, 0x09, 0xfb, 0x0c, 0xb5, 0x0a,
  0x10, 0x03, 0xc8, 0x10, 0x01, 0xfb, 0xbc, 0xfa, 0x04, 0x10, 0xd0, 0xfb,
  0xff, 0x0e, 0xcb, 0xf6, 0x09, 0x0b, 0xd0, 0x09, 0x01, 0x0f, 0xc7, 0x12,
  0x02, 0x26, 0xd6, 0x07, 0x14, 0x2f, 0xe6, 0x0e, 0x04, 0x04, 0x2e, 0xe8,
  0x00, 0x03, 0x26, 0xf1, 0x0b, 0x08, 0x37, 0xec, 0xfc, 0x12, 0x2c, 0xfa,
  0x08, 0x0c, 0x31, 0xff, 0xfe, 0x09, 0x25, 0x08, 0xf4, 0x03, 0x1c, 0xf1,
  0xf4, 0x00, 0x28, 0x07, 0xfc, 0x17, 0x29, 0x04, 0xf7, 0x0b, 0x34, 0xfd,
  0xf0, 0x06, 0x3a, 0xfe, 0x04, 0x05, 0x3b, 0xfb, 0xf7, 0x17, 0x21, 0x05,
  0x01, 0x01, 0x3a, 0x0c, 0x08, 0x08, 0x2f, 0xfc, 0xf6, 0x10, 0x3f, 0x02,
  0x01, 0x17, 0x31, 0x08, 0xf9, 0x08, 0x22, 0x04, 0x0d, 0x0c, 0x27, 0x02,
  0xfc, 0x0b, 0x2c, 0x05, 0xf6, 0x08, 0x17, 0xf8, 0x01, 0xf2, 0x39, 0xf8,
  0xf4, 0xfd, 0x34, 0xf7, 0xf2, 0xfe, 0x3c, 0xf9, 0xf2, 0xf1, 0x2c, 0x0e,
  0xef, 0xef, 0x3f, 0xfe, 0x0a, 0x04, 0x46, 0x07, 0xf4, 0xfe, 0x39, 0xfe,
  0x05, 0xe5, 0x21, 0x00, 0xeb, 0xea, 0x0f, 0xf8, 0x86, 0xff, 0xff, 0xff,
  0x04, 0x00, 0x00, 0x00, 0x40, 0x00, 0x00, 0x00, 0xf1, 0x00, 0x00, 0x00,
  0x52, 0x02, 0x00, 0x00, 0x0e, 0x01, 0x00, 0x00, 0xa4, 0xff, 0xff, 0xff,
  0x07, 0xff, 0xff, 0xff, 0xd0, 0x01, 0x00, 0x00, 0xa2, 0xfc, 0xff, 0xff,
  0x8a, 0x04, 0x00, 0x00, 0x9b, 0x04, 0x00, 0x00, 0x6c, 0xfd, 0xff, 0xff,
  0xe1, 0xff, 0xff, 0xff, 0x7f, 0x01, 0x00, 0x00, 0xd4, 0x02, 0x00, 0x00,
  0x45, 0xfa, 0xff, 0xff, 0xb6, 0x03, 0x00, 0x00, 0xde, 0x02, 0x00, 0x00,
  0xd2, 0xff, 0xff, 0xff, 0x04, 0x00, 0x00, 0x00, 0x10, 0x00, 0x00, 0x00,
  0x5b, 0x41, 0x6b, 0x51, 0x5a, 0x6a, 0x81, 0xe1, 0x58, 0xdf, 0xcd, 0xb5,
  0xac, 0x95, 0xc6, 0x62, 0xee, 0xff, 0xff, 0xff, 0x04, 0x00, 0x00, 0x00,
  0x04, 0x00, 0x00, 0x00, 0xfe, 0xfa, 0xff, 0xff, 0x00, 0x00, 0x06, 0x00,
  0x08, 0x00, 0x04, 0x00, 0x06, 0x00, 0x00, 0x00, 0x04, 0x00, 0x00, 0x00,
  0x08, 0x00, 0x00, 0x00, 0xff, 0xff, 0xff, 0xff, 0x78, 0x00, 0x00, 0x00,
  0xf4, 0xf4, 0xff, 0xff, 0xf8, 0xf4, 0xff, 0xff, 0x0f, 0x00, 0x00, 0x00,
  0x4d, 0x4c, 0x49, 0x52, 0x20, 0x43, 0x6f, 0x6e, 0x76, 0x65, 0x72, 0x74,
  0x65, 0x64, 0x2e, 0x00, 0x01, 0x00, 0x00, 0x00, 0x14, 0x00, 0x00, 0x00,
  0x00, 0x00, 0x0e, 0x00, 0x18, 0x00, 0x14, 0x00, 0x10, 0x00, 0x0c, 0x00,
  0x08, 0x00, 0x04, 0x00, 0x0e, 0x00, 0x00, 0x00, 0x14, 0x00, 0x00, 0x00,
  0x1c, 0x00, 0x00, 0x00, 0xf8, 0x01, 0x00, 0x00, 0xfc, 0x01, 0x00, 0x00,
  0x00, 0x02, 0x00, 0x00, 0x04, 0x00, 0x00, 0x00, 0x6d, 0x61, 0x69, 0x6e,
  0x00, 0x00, 0x00, 0x00, 0x08, 0x00, 0x00, 0x00, 0xc0, 0x01, 0x00, 0x00,
  0x60, 0x01, 0x00, 0x00, 0xfc, 0x00, 0x00, 0x00, 0xd4, 0x00, 0x00, 0x00,
  0x84, 0x00, 0x00, 0x00, 0x4c, 0x00, 0x00, 0x00, 0x28, 0x00, 0x00, 0x00,
  0x04, 0x00, 0x00, 0x00, 0x4a, 0xff, 0xff, 0xff, 0x0c, 0x00, 0x00, 0x00,
  0x10, 0x00, 0x00, 0x00, 0x06, 0x00, 0x00, 0x00, 0x01, 0x00, 0x00, 0x00,
  0x0f, 0x00, 0x00, 0x00, 0x01, 0x00, 0x00, 0x00, 0x0e, 0x00, 0x00, 0x00,
  0x6a, 0xff, 0xff, 0xff, 0x0c, 0x00, 0x00, 0x00, 0x10, 0x00, 0x00, 0x00,
  0x05, 0x00, 0x00, 0x00, 0x01, 0x00, 0x00, 0x00, 0x0e, 0x00, 0x00, 0x00,
  0x01, 0x00, 0x00, 0x00, 0x0d, 0x00, 0x00, 0x00, 0x0a, 0xff, 0xff, 0xff,
  0x14, 0x00, 0x00, 0x00, 0x00, 0x00, 0x00, 0x08, 0x10, 0x00, 0x00, 0x00,
  0x14, 0x00, 0x00, 0x00, 0x04, 0x00, 0x00, 0x00, 0xc8, 0xf5, 0xff, 0xff,
  0x01, 0x00, 0x00, 0x00, 0x0d, 0x00, 0x00, 0x00, 0x03, 0x00, 0x00, 0x00,
  0x0c, 0x00, 0x00, 0x00, 0x03, 0x00, 0x00, 0x00, 0x02, 0x00, 0x00, 0x00,
  0x3e, 0xff, 0xff, 0xff, 0x1c, 0x00, 0x00, 0x00, 0x00, 0x00, 0x00, 0x08,
  0x1c, 0x00, 0x00, 0x00, 0x20, 0x00, 0x00, 0x00, 0x04, 0x00, 0x00, 0x00,
  0x00, 0x00, 0x06, 0x00, 0x08, 0x00, 0x07, 0x00, 0x06, 0x00, 0x00, 0x00,
  0x00, 0x00, 0x00, 0x01, 0x01, 0x00, 0x00, 0x00, 0x0c, 0x00, 0x00, 0x00,
  0x03, 0x00, 0x00, 0x00, 0x0b, 0x00, 0x00, 0x00, 0x05, 0x00, 0x00, 0x00,
  0x04, 0x00, 0x00, 0x00, 0x00, 0x00, 0x0a, 0x00, 0x10, 0x00, 0x0c, 0x00,
  0x08, 0x00, 0x04, 0x00, 0x0a, 0x00, 0x00, 0x00, 0x0c, 0x00, 0x00, 0x00,
  0x10, 0x00, 0x00, 0x00, 0x03, 0x00, 0x00, 0x00, 0x01, 0x00, 0x00, 0x00,
  0x0b, 0x00, 0x00, 0x00, 0x02, 0x00, 0x00, 0x00, 0x0a, 0x00, 0x00, 0x00,
  0x01, 0x00, 0x00, 0x00, 0xae, 0xff, 0xff, 0xff, 0x24, 0x00, 0x00, 0x00,
  0x00, 0x00, 0x00, 0x05, 0x34, 0x00, 0x00, 0x00, 0x38, 0x00, 0x00, 0x00,
  0x02, 0x00, 0x00, 0x00, 0x00, 0x00, 0x0e, 0x00, 0x18, 0x00, 0x17, 0x00,
  0x10, 0x00, 0x0c, 0x00, 0x08, 0x00, 0x04, 0x00, 0x0e, 0x00, 0x00, 0x00,
  0x01, 0x00, 0x00, 0x00, 0x02, 0x00, 0x00, 0x00, 0x01, 0x00, 0x00, 0x00,
  0x02, 0x00, 0x00, 0x00, 0x00, 0x00, 0x00, 0x01, 0x01, 0x00, 0x00, 0x00,
  0x0a, 0x00, 0x00, 0x00, 0x01, 0x00, 0x00, 0x00, 0x09, 0x00, 0x00, 0x00,
  0x00, 0x00, 0x0e, 0x00, 0x18, 0x00, 0x14, 0x00, 0x10, 0x00, 0x0c, 0x00,
  0x0b, 0x00, 0x04, 0x00, 0x0e, 0x00, 0x00, 0x00, 0x20, 0x00, 0x00, 0x00,
  0x00, 0x00, 0x00, 0x01, 0x2c, 0x00, 0x00, 0x00, 0x30, 0x00, 0x00, 0x00,
  0x01, 0x00, 0x00, 0x00, 0x0c, 0x00, 0x14, 0x00, 0x13, 0x00, 0x0c, 0x00,
  0x08, 0x00, 0x07, 0x00, 0x0c, 0x00, 0x00, 0x00, 0x00, 0x00, 0x00, 0x01,
  0x01, 0x00, 0x00, 0x00, 0x01, 0x00, 0x00, 0x00, 0x00, 0x00, 0x00, 0x01,
  0x01, 0x00, 0x00, 0x00, 0x09, 0x00, 0x00, 0x00, 0x03, 0x00, 0x00, 0x00,
  0x08, 0x00, 0x00, 0x00, 0x07, 0x00, 0x00, 0x00, 0x06, 0x00, 0x00, 0x00,
  0x00, 0x00, 0x0a, 0x00, 0x0c, 0x00, 0x00, 0x00, 0x08, 0x00, 0x04, 0x00,
  0x0a, 0x00, 0x00, 0x00, 0x08, 0x00, 0x00, 0x00, 0x0c, 0x00, 0x00, 0x00,
  0x01, 0x00, 0x00, 0x00, 0x08, 0x00, 0x00, 0x00, 0x01, 0x00, 0x00, 0x00,
  0x00, 0x00, 0x00, 0x00, 0x01, 0x00, 0x00, 0x00, 0x0f, 0x00, 0x00, 0x00,
  0x01, 0x00, 0x00, 0x00, 0x00, 0x00, 0x00, 0x00, 0x10, 0x00, 0x00, 0x00,
  0x90, 0x08, 0x00, 0x00, 0x28, 0x08, 0x00, 0x00, 0x84, 0x07, 0x00, 0x00,
  0x14, 0x07, 0x00, 0x00, 0x98, 0x06, 0x00, 0x00, 0x24, 0x06, 0x00, 0x00,
  0x80, 0x05, 0x00, 0x00, 0xe4, 0x04, 0x00, 0x00, 0x60, 0x04, 0x00, 0x00,
  0x54, 0x03, 0x00, 0x00, 0xb8, 0x02, 0x00, 0x00, 0x34, 0x02, 0x00, 0x00,
  0x78, 0x01, 0x00, 0x00, 0xdc, 0x00, 0x00, 0x00, 0x60, 0x00, 0x00, 0x00,
  0x04, 0x00, 0x00, 0x00, 0xc6, 0xf7, 0xff, 0xff, 0x00, 0x00, 0x00, 0x01,
  0x14, 0x00, 0x00, 0x00, 0x1c, 0x00, 0x00, 0x00, 0x1c, 0x00, 0x00, 0x00,
  0x10, 0x00, 0x00, 0x00, 0x34, 0x00, 0x00, 0x00, 0x02, 0x00, 0x00, 0x00,
  0xff, 0xff, 0xff, 0xff, 0x01, 0x00, 0x00, 0x00, 0xa8, 0xf7, 0xff, 0xff,
  0x19, 0x00, 0x00, 0x00, 0x53, 0x74, 0x61, 0x74, 0x65, 0x66, 0x75, 0x6c,
  0x50, 0x61, 0x72, 0x74, 0x69, 0x74, 0x69, 0x6f, 0x6e, 0x65, 0x64, 0x43,
  0x61, 0x6c, 0x6c, 0x3a, 0x30, 0x00, 0x00, 0x00, 0x02, 0x00, 0x00, 0x00,
  0x01, 0x00, 0x00, 0x00, 0x01, 0x00, 0x00, 0x00, 0x2e, 0xfc, 0xff, 0xff,
  0x00, 0x00, 0x00, 0x01, 0x18, 0x00, 0x00, 0x00, 0x20, 0x00, 0x00, 0x00,
  0x3c, 0x00, 0x00, 0x00, 0x0f, 0x00, 0x00, 0x00, 0x00, 0x00, 0x00, 0x09,
  0x50, 0x00, 0x00, 0x00, 0x02, 0x00, 0x00, 0x00, 0xff, 0xff, 0xff, 0xff,
  0x01, 0x00, 0x00, 0x00, 0x1c, 0xf9, 0xff, 0xff, 0x08, 0x00, 0x00, 0x00,
  0x10, 0x00, 0x00, 0x00, 0x01, 0x00, 0x00, 0x00, 0x80, 0xff, 0xff, 0xff,
  0xff, 0xff, 0xff, 0xff, 0x01, 0x00, 0x00, 0x00, 0x00, 0x00, 0x80, 0x3b,
  0x1a, 0x00, 0x00, 0x00, 0x53, 0x74, 0x61, 0x74, 0x65, 0x66, 0x75, 0x6c,
  0x50, 0x61, 0x72, 0x74, 0x69, 0x74, 0x69, 0x6f, 0x6e, 0x65, 0x64, 0x43,
  0x61, 0x6c, 0x6c, 0x3a, 0x30, 0x31, 0x00, 0x00, 0x02, 0x00, 0x00, 0x00,
  0x01, 0x00, 0x00, 0x00, 0x01, 0x00, 0x00, 0x00, 0xa6, 0xfc, 0xff, 0xff,
  0x00, 0x00, 0x00, 0x01, 0x18, 0x00, 0x00, 0x00, 0x20, 0x00, 0x00, 0x00,
  0x3c, 0x00, 0x00, 0x00, 0x0e, 0x00, 0x00, 0x00, 0x00, 0x00, 0x00, 0x09,
  0x70, 0x00, 0x00, 0x00, 0x02, 0x00, 0x00, 0x00, 0xff, 0xff, 0xff, 0xff,
  0x01, 0x00, 0x00, 0x00, 0x94, 0xf9, 0xff, 0xff, 0x08, 0x00, 0x00, 0x00,
  0x10, 0x00, 0x00, 0x00, 0x01, 0x00, 0x00, 0x00, 0xa7, 0xff, 0xff, 0xff,
  0xff, 0xff, 0xff, 0xff, 0x01, 0x00, 0x00, 0x00, 0x82, 0x92, 0x70, 0x3e,
  0x3a, 0x00, 0x00, 0x00, 0x73, 0x65, 0x71, 0x75, 0x65, 0x6e, 0x74, 0x69,
  0x61, 0x6c, 0x5f, 0x33, 0x2f, 0x64, 0x65, 0x6e, 0x73, 0x65, 0x5f, 0x31,
  0x31, 0x2f, 0x4d, 0x61, 0x74, 0x4d, 0x75, 0x6c, 0x3b, 0x73, 0x65, 0x71,
  0x75, 0x65, 0x6e, 0x74, 0x69, 0x61, 0x6c, 0x5f, 0x33, 0x2f, 0x64, 0x65,
  0x6e, 0x73, 0x65, 0x5f, 0x31, 0x31, 0x2f, 0x42, 0x69, 0x61, 0x73, 0x41,
  0x64, 0x64, 0x00, 0x00, 0x02, 0x00, 0x00, 0x00, 0x01, 0x00, 0x00, 0x00,
  0x01, 0x00, 0x00, 0x00, 0x3e, 0xfd, 0xff, 0xff, 0x00, 0x00, 0x00, 0x01,
  0x18, 0x00, 0x00, 0x00, 0x20, 0x00, 0x00, 0x00, 0x40, 0x00, 0x00, 0x00,
  0x0d, 0x00, 0x00, 0x00, 0x00, 0x00, 0x00, 0x09, 0x90, 0x00, 0x00, 0x00,
  0x02, 0x00, 0x00, 0x00, 0xff, 0xff, 0xff, 0xff, 0x10, 0x00, 0x00, 0x00,
  0x2c, 0xfa, 0xff, 0xff, 0x08, 0x00, 0x00, 0x00, 0x14, 0x00, 0x00, 0x00,
  0x01, 0x00, 0x00, 0x00, 0x80, 0xff, 0xff, 0xff, 0xff, 0xff, 0xff, 0xff,
  0x00, 0x00, 0x00, 0x00, 0x01, 0x00, 0x00, 0x00, 0xdc, 0xf9, 0xbb, 0x3c,
  0x55, 0x00, 0x00, 0x00, 0x73, 0x65, 0x71, 0x75, 0x65, 0x6e, 0x74, 0x69,
  0x61, 0x6c, 0x5f, 0x33, 0x2f, 0x64, 0x65, 0x6e, 0x73, 0x65, 0x5f, 0x31,
  0x30, 0x2f, 0x4d, 0x61, 0x74, 0x4d, 0x75, 0x6c, 0x3b, 0x73, 0x65, 0x71,
  0x75, 0x65, 0x6e, 0x74, 0x69, 0x61, 0x6c, 0x5f, 0x33, 0x2f, 0x64, 0x65,
  0x6e, 0x73, 0x65, 0x5f, 0x31, 0x30, 0x2f, 0x52, 0x65, 0x6c, 0x75, 0x3b,
  0x73, 0x65, 0x71, 0x75, 0x65, 0x6e, 0x74, 0x69, 0x61, 0x6c, 0x5f, 0x33,
  0x2f, 0x64, 0x65, 0x6e, 0x73, 0x65, 0x5f, 0x31, 0x30, 0x2f, 0x42, 0x69,
  0x61, 0x73, 0x41, 0x64, 0x64, 0x00, 0x00, 0x00, 0x02, 0x00, 0x00, 0x00,
  0x01, 0x00, 0x00, 0x00, 0x10, 0x00, 0x00, 0x00, 0xf6, 0xfd, 0xff, 0xff,
  0x00, 0x00, 0x00, 0x01, 0x18, 0x00, 0x00, 0x00, 0x20, 0x00, 0x00, 0x00,
  0x40, 0x00, 0x00, 0x00, 0x0c, 0x00, 0x00, 0x00, 0x00, 0x00, 0x00, 0x09,
  0x58, 0x00, 0x00, 0x00, 0x02, 0x00, 0x00, 0x00, 0xff, 0xff, 0xff, 0xff,
  0x78, 0x00, 0x00, 0x00, 0xe4, 0xfa, 0xff, 0xff, 0x08, 0x00, 0x00, 0x00,
  0x14, 0x00, 0x00, 0x00, 0x01, 0x00, 0x00, 0x00, 0x80, 0xff, 0xff, 0xff,
  0xff, 0xff, 0xff, 0xff, 0x00, 0x00, 0x00, 0x00, 0x01, 0x00, 0x00, 0x00,
  0x21, 0x64, 0x90, 0x3b, 0x1e, 0x00, 0x00, 0x00, 0x73, 0x65, 0x71, 0x75,
  0x65, 0x6e, 0x74, 0x69, 0x61, 0x6c, 0x5f, 0x33, 0x2f, 0x66, 0x6c, 0x61,
  0x74, 0x74, 0x65, 0x6e, 0x5f, 0x33, 0x2f, 0x52, 0x65, 0x73, 0x68, 0x61,
  0x70, 0x65, 0x00, 0x00, 0x02, 0x00, 0x00, 0x00, 0x01, 0x00, 0x00, 0x00,
  0x78, 0x00, 0x00, 0x00, 0x76, 0xfe, 0xff, 0xff, 0x00, 0x00, 0x00, 0x01,
  0x18, 0x00, 0x00, 0x00, 0x28, 0x00, 0x00, 0x00, 0x48, 0x00, 0x00, 0x00,
  0x0b, 0x00, 0x00, 0x00, 0x00, 0x00, 0x00, 0x09, 0x68, 0x00, 0x00, 0x00,
  0x04, 0x00, 0x00, 0x00, 0xff, 0xff, 0xff, 0xff, 0x01, 0x00, 0x00, 0x00,
  0x1e, 0x00, 0x00, 0x00, 0x04, 0x00, 0x00, 0x00, 0x6c, 0xfb, 0xff, 0xff,
  0x08, 0x00, 0x00, 0x00, 0x14, 0x00, 0x00, 0x00, 0x01, 0x00, 0x00, 0x00,
  0x80, 0xff, 0xff, 0xff, 0xff, 0xff, 0xff, 0xff, 0x00, 0x00, 0x00, 0x00,
  0x01, 0x00, 0x00, 0x00, 0x21, 0x64, 0x90, 0x3b, 0x24, 0x00, 0x00, 0x00,
  0x73, 0x65, 0x71, 0x75, 0x65, 0x6e, 0x74, 0x69, 0x61, 0x6c, 0x5f, 0x33,
  0x2f, 0x6d, 0x61, 0x78, 0x5f, 0x70, 0x6f, 0x6f, 0x6c, 0x69, 0x6e, 0x67,
  0x32, 0x64, 0x5f, 0x31, 0x2f, 0x4d, 0x61, 0x78, 0x50, 0x6f, 0x6f, 0x6c,
  0x00, 0x00, 0x00, 0x00, 0x04, 0x00, 0x00, 0x00, 0x01, 0x00, 0x00, 0x00,
  0x01, 0x00, 0x00, 0x00, 0x1e, 0x00, 0x00, 0x00, 0x04, 0x00, 0x00, 0x00,
  0x0e, 0xff, 0xff, 0xff, 0x00, 0x00, 0x00, 0x01, 0x18, 0x00, 0x00, 0x00,
  0x28, 0x00, 0x00, 0x00, 0x44, 0x00, 0x00, 0x00, 0x0a, 0x00, 0x00, 0x00,
  0x00, 0x00, 0x00, 0x09, 0xc0, 0x00, 0x00, 0x00, 0x04, 0x00, 0x00, 0x00,
  0xff, 0xff, 0xff, 0xff, 0x01, 0x00, 0x00, 0x00, 0x3c, 0x00, 0x00, 0x00,
  0x04, 0x00, 0x00, 0x00, 0x04, 0xfc, 0xff, 0xff, 0x08, 0x00, 0x00, 0x00,
  0x10, 0x00, 0x00, 0x00, 0x01, 0x00, 0x00, 0x00, 0x80, 0xff, 0xff, 0xff,
  0xff, 0xff, 0xff, 0xff, 0x01, 0x00, 0x00, 0x00, 0x21, 0x64, 0x90, 0x3b,
  0x82, 0x00, 0x00, 0x00, 0x73, 0x65, 0x71, 0x75, 0x65, 0x6e, 0x74, 0x69,
  0x61, 0x6c, 0x5f, 0x33, 0x2f, 0x63, 0x6f, 0x6e, 0x76, 0x32, 0x64, 0x5f,
  0x31, 0x2f, 0x52, 0x65, 0x6c, 0x75, 0x3b, 0x73, 0x65, 0x71, 0x75, 0x65,
  0x6e, 0x74, 0x69, 0x61, 0x6c, 0x5f, 0x33, 0x2f, 0x63, 0x6f, 0x6e, 0x76,
  0x32, 0x64, 0x5f, 0x31, 0x2f, 0x42, 0x69, 0x61, 0x73, 0x41, 0x64, 0x64,
  0x3b, 0x73, 0x65, 0x71, 0x75, 0x65, 0x6e, 0x74, 0x69, 0x61, 0x6c, 0x5f,
  0x33, 0x2f, 0x63, 0x6f, 0x6e, 0x76, 0x32, 0x64, 0x5f, 0x31, 0x2f, 0x43,
  0x6f, 0x6e, 0x76, 0x32, 0x44, 0x3b, 0x73, 0x65, 0x71, 0x75, 0x65, 0x6e,
  0x74, 0x69, 0x61, 0x6c, 0x5f, 0x33, 0x2f, 0x63, 0x6f, 0x6e, 0x76, 0x32,
  0x64, 0x5f, 0x31, 0x2f, 0x42, 0x69, 0x61, 0x73, 0x41, 0x64, 0x64, 0x2f,
  0x52, 0x65, 0x61, 0x64, 0x56, 0x61, 0x72, 0x69, 0x61, 0x62, 0x6c, 0x65,
  0x4f, 0x70, 0x00, 0x00, 0x04, 0x00, 0x00, 0x00, 0x01, 0x00, 0x00, 0x00,
  0x01, 0x00, 0x00, 0x00, 0x3c, 0x00, 0x00, 0x00, 0x04, 0x00, 0x00, 0x00,
  0x00, 0x00, 0x16, 0x00, 0x20, 0x00, 0x1c, 0x00, 0x1b, 0x00, 0x14, 0x00,
  0x10, 0x00, 0x0c, 0x00, 0x00, 0x00, 0x00, 0x00, 0x08, 0x00, 0x07, 0x00,
  0x16, 0x00, 0x00, 0x00, 0x00, 0x00, 0x00, 0x01, 0x18, 0x00, 0x00, 0x00,
  0x28, 0x00, 0x00, 0x00, 0x48, 0x00, 0x00, 0x00, 0x09, 0x00, 0x00, 0x00,
  0x00, 0x00, 0x00, 0x09, 0x50, 0x00, 0x00, 0x00, 0x04, 0x00, 0x00, 0x00,
  0xff, 0xff, 0xff, 0xff, 0x01, 0x00, 0x00, 0x00, 0x40, 0x00, 0x00, 0x00,
  0x01, 0x00, 0x00, 0x00, 0x0c, 0xfd, 0xff, 0xff, 0x08, 0x00, 0x00, 0x00,
  0x14, 0x00, 0x00, 0x00, 0x01, 0x00, 0x00, 0x00, 0xff, 0xff, 0xff, 0xff,
  0xff, 0xff, 0xff, 0xff, 0x00, 0x00, 0x00, 0x00, 0x01, 0x00, 0x00, 0x00,
  0x81, 0x80, 0x00, 0x3c, 0x0c, 0x00, 0x00, 0x00, 0x74, 0x66, 0x6c, 0x2e,
  0x71, 0x75, 0x61, 0x6e, 0x74, 0x69, 0x7a, 0x65, 0x00, 0x00, 0x00, 0x00,
  0x04, 0x00, 0x00, 0x00, 0x01, 0x00, 0x00, 0x00, 0x01, 0x00, 0x00, 0x00,
  0x40, 0x00, 0x00, 0x00, 0x01, 0x00, 0x00, 0x00, 0xea, 0xfc, 0xff, 0xff,
  0x00, 0x00, 0x00, 0x01, 0x14, 0x00, 0x00, 0x00, 0x54, 0x00, 0x00, 0x00,
  0x08, 0x00, 0x00, 0x00, 0x00, 0x00, 0x00, 0x09, 0x6c, 0x00, 0x00, 0x00,
  0x74, 0xfd, 0xff, 0xff, 0x08, 0x00, 0x00, 0x00, 0x28, 0x00, 0x00, 0x00,
  0x04, 0x00, 0x00, 0x00, 0x00, 0x00, 0x00, 0x00, 0x00, 0x00, 0x00, 0x00,
  0x00, 0x00, 0x00, 0x00, 0x00, 0x00, 0x00, 0x00, 0x00, 0x00, 0x00, 0x00,
  0x00, 0x00, 0x00, 0x00, 0x00, 0x00, 0x00, 0x00, 0x00, 0x00, 0x00, 0x00,
  0x04, 0x00, 0x00, 0x00, 0x6e, 0xf1, 0x5d, 0x3b, 0x26, 0x7c, 0x73, 0x3b,
  0xa6, 0x0c, 0x9f, 0x3b, 0x69, 0xb9, 0x69, 0x3b, 0x1c, 0x00, 0x00, 0x00,
  0x73, 0x65, 0x71, 0x75, 0x65, 0x6e, 0x74, 0x69, 0x61, 0x6c, 0x5f, 0x33,
  0x2f, 0x63, 0x6f, 0x6e, 0x76, 0x32, 0x64, 0x5f, 0x31, 0x2f, 0x43, 0x6f,
  0x6e, 0x76, 0x32, 0x44, 0x00, 0x00, 0x00, 0x00, 0x04, 0x00, 0x00, 0x00,
  0x04, 0x00, 0x00, 0x00, 0x01, 0x00, 0x00, 0x00, 0x05, 0x00, 0x00, 0x00,
  0x01, 0x00, 0x00, 0x00, 0x82, 0xfd, 0xff, 0xff, 0x00, 0x00, 0x00, 0x01,
  0x14, 0x00, 0x00, 0x00, 0x58, 0x00, 0x00, 0x00, 0x07, 0x00, 0x00, 0x00,
  0x00, 0x00, 0x00, 0x02, 0x80, 0x00, 0x00, 0x00, 0x0c, 0xfe, 0xff, 0xff,
  0x08, 0x00, 0x00, 0x00, 0x2c, 0x00, 0x00, 0x00, 0x04, 0x00, 0x00, 0x00,
  0x00, 0x00, 0x00, 0x00, 0x00, 0x00, 0x00, 0x00, 0x00, 0x00, 0x00, 0x00,
  0x00, 0x00, 0x00, 0x00, 0x00, 0x00, 0x00, 0x00, 0x00, 0x00, 0x00, 0x00,
  0x00, 0x00, 0x00, 0x00, 0x00, 0x00, 0x00, 0x00, 0x00, 0x00, 0x00, 0x00,
  0x04, 0x00, 0x00, 0x00, 0x3f, 0xd0, 0xde, 0x37, 0x98, 0x70, 0xf4, 0x37,
  0x53, 0xac, 0x1f, 0x38, 0x0e, 0xa4, 0xea, 0x37, 0x2c, 0x00, 0x00, 0x00,
  0x73, 0x65, 0x71, 0x75, 0x65, 0x6e, 0x74, 0x69, 0x61, 0x6c, 0x5f, 0x33,
  0x2f, 0x63, 0x6f, 0x6e, 0x76, 0x32, 0x64, 0x5f, 0x31, 0x2f, 0x42, 0x69,
  0x61, 0x73, 0x41, 0x64, 0x64, 0x2f, 0x52, 0x65, 0x61, 0x64, 0x56, 0x61,
  0x72, 0x69, 0x61, 0x62, 0x6c, 0x65, 0x4f, 0x70, 0x00, 0x00, 0x00, 0x00,
  0x01, 0x00, 0x00, 0x00, 0x04, 0x00, 0x00, 0x00, 0x22, 0xfe, 0xff, 0xff,
  0x00, 0x00, 0x00, 0x01, 0x14, 0x00, 0x00, 0x00, 0x34, 0x00, 0x00, 0x00,
  0x06, 0x00, 0x00, 0x00, 0x00, 0x00, 0x00, 0x09, 0x4c, 0x00, 0x00, 0x00,
  0xac, 0xfe, 0xff, 0xff, 0x08, 0x00, 0x00, 0x00, 0x14, 0x00, 0x00, 0x00,
  0x01, 0x00, 0x00, 0x00, 0x00, 0x00, 0x00, 0x00, 0x00, 0x00, 0x00, 0x00,
  0x00, 0x00, 0x00, 0x00, 0x01, 0x00, 0x00, 0x00, 0x93, 0x05, 0x6b, 0x3c,
  0x1c, 0x00, 0x00, 0x00, 0x73, 0x65, 0x71, 0x75, 0x65, 0x6e, 0x74, 0x69,
  0x61, 0x6c, 0x5f, 0x33, 0x2f, 0x64, 0x65, 0x6e, 0x73, 0x65, 0x5f, 0x31,
  0x30, 0x2f, 0x4d, 0x61, 0x74, 0x4d, 0x75, 0x6c, 0x00, 0x00, 0x00, 0x00,
  0x02, 0x00, 0x00, 0x00, 0x10, 0x00, 0x00, 0x00, 0x78, 0x00, 0x00, 0x00,
  0x92, 0xfe, 0xff, 0xff, 0x00, 0x00, 0x00, 0x01, 0x14, 0x00, 0x00, 0x00,
  0x30, 0x00, 0x00, 0x00, 0x05, 0x00, 0x00, 0x00, 0x00, 0x00, 0x00, 0x02,
  0x58, 0x00, 0x00, 0x00, 0x1c, 0xff, 0xff, 0xff, 0x08, 0x00, 0x00, 0x00,
  0x10, 0x00, 0x00, 0x00, 0x01, 0x00, 0x00, 0x00, 0x00, 0x00, 0x00, 0x00,
  0x00, 0x00, 0x00, 0x00, 0x01, 0x00, 0x00, 0x00, 0x0f, 0x8f, 0x84, 0x38,
  0x2c, 0x00, 0x00, 0x00, 0x73, 0x65, 0x71, 0x75, 0x65, 0x6e, 0x74, 0x69,
  0x61, 0x6c, 0x5f, 0x33, 0x2f, 0x64, 0x65, 0x6e, 0x73, 0x65, 0x5f, 0x31,
  0x30, 0x2f, 0x42, 0x69, 0x61, 0x73, 0x41, 0x64, 0x64, 0x2f, 0x52, 0x65,
  0x61, 0x64, 0x56, 0x61, 0x72, 0x69, 0x61, 0x62, 0x6c, 0x65, 0x4f, 0x70,
  0x00, 0x00, 0x00, 0x00, 0x01, 0x00, 0x00, 0x00, 0x10, 0x00, 0x00, 0x00,
  0x0a, 0xff, 0xff, 0xff, 0x00, 0x00, 0x00, 0x01, 0x14, 0x00, 0x00, 0x00,
  0x30, 0x00, 0x00, 0x00, 0x04, 0x00, 0x00, 0x00, 0x00, 0x00, 0x00, 0x09,
  0x48, 0x00, 0x00, 0x00, 0x94, 0xff, 0xff, 0xff, 0x08, 0x00, 0x00, 0x00,
  0x10, 0x00, 0x00, 0x00, 0x01, 0x00, 0x00, 0x00, 0x00, 0x00, 0x00, 0x00,
  0x00, 0x00, 0x00, 0x00, 0x01, 0x00, 0x00, 0x00, 0x0f, 0x92, 0x79, 0x3c,
  0x1c, 0x00, 0x00, 0x00, 0x73, 0x65, 0x71, 0x75, 0x65, 0x6e, 0x74, 0x69,
  0x61, 0x6c, 0x5f, 0x33, 0x2f, 0x64, 0x65, 0x6e, 0x73, 0x65, 0x5f, 0x31,
  0x31, 0x2f, 0x4d, 0x61, 0x74, 0x4d, 0x75, 0x6c, 0x00, 0x00, 0x00, 0x00,
  0x02, 0x00, 0x00, 0x00, 0x01, 0x00, 0x00, 0x00, 0x10, 0x00, 0x00, 0x00,
  0x76, 0xff, 0xff, 0xff, 0x00, 0x00, 0x00, 0x01, 0x20, 0x00, 0x00, 0x00,
  0x40, 0x00, 0x00, 0x00, 0x03, 0x00, 0x00, 0x00, 0x00, 0x00, 0x00, 0x02,
  0x68, 0x00, 0x00, 0x00, 0x0c, 0x00, 0x0c, 0x00, 0x00, 0x00, 0x00, 0x00,
  0x08, 0x00, 0x04, 0x00, 0x0c, 0x00, 0x00, 0x00, 0x08, 0x00, 0x00, 0x00,
  0x14, 0x00, 0x00, 0x00, 0x01, 0x00, 0x00, 0x00, 0x00, 0x00, 0x00, 0x00,
  0x00, 0x00, 0x00, 0x00, 0x00, 0x00, 0x00, 0x00, 0x01, 0x00, 0x00, 0x00,
  0x46, 0x41, 0xb7, 0x39, 0x2c, 0x00, 0x00, 0x00, 0x73, 0x65, 0x71, 0x75,
  0x65, 0x6e, 0x74, 0x69, 0x61, 0x6c, 0x5f, 0x33, 0x2f, 0x64, 0x65, 0x6e,
  0x73, 0x65, 0x5f, 0x31, 0x31, 0x2f, 0x42, 0x69, 0x61, 0x73, 0x41, 0x64,
  0x64, 0x2f, 0x52, 0x65, 0x61, 0x64, 0x56, 0x61, 0x72, 0x69, 0x61, 0x62,
  0x6c, 0x65, 0x4f, 0x70, 0x00, 0x00, 0x00, 0x00, 0x01, 0x00, 0x00, 0x00,
  0x01, 0x00, 0x00, 0x00, 0x00, 0x00, 0x16, 0x00, 0x1c, 0x00, 0x18, 0x00,
  0x17, 0x00, 0x10, 0x00, 0x0c, 0x00, 0x08, 0x00, 0x00, 0x00, 0x00, 0x00,
  0x00, 0x00, 0x07, 0x00, 0x16, 0x00, 0x00, 0x00, 0x00, 0x00, 0x00, 0x01,
  0x14, 0x00, 0x00, 0x00, 0x14, 0x00, 0x00, 0x00, 0x02, 0x00, 0x00, 0x00,
  0x00, 0x00, 0x00, 0x02, 0x2c, 0x00, 0x00, 0x00, 0x88, 0xff, 0xff, 0xff,
  0x1c, 0x00, 0x00, 0x00, 0x73, 0x65, 0x71, 0x75, 0x65, 0x6e, 0x74, 0x69,
  0x61, 0x6c, 0x5f, 0x33, 0x2f, 0x66, 0x6c, 0x61, 0x74, 0x74, 0x65, 0x6e,
  0x5f, 0x33, 0x2f, 0x43, 0x6f, 0x6e, 0x73, 0x74, 0x00, 0x00, 0x00, 0x00,
  0x01, 0x00, 0x00, 0x00, 0x02, 0x00, 0x00, 0x00, 0x00, 0x00, 0x16, 0x00,
  0x1c, 0x00, 0x18, 0x00, 0x00, 0x00, 0x14, 0x00, 0x10, 0x00, 0x0c, 0x00,
  0x00, 0x00, 0x00, 0x00, 0x08, 0x00, 0x07, 0x00, 0x16, 0x00, 0x00, 0x00,
  0x00, 0x00, 0x00, 0x01, 0x14, 0x00, 0x00, 0x00, 0x28, 0x00, 0x00, 0x00,
  0x28, 0x00, 0x00, 0x00, 0x01, 0x00, 0x00, 0x00, 0x40, 0x00, 0x00, 0x00,
  0x04, 0x00, 0x00, 0x00, 0xff, 0xff, 0xff, 0xff, 0x01, 0x00, 0x00, 0x00,
  0x40, 0x00, 0x00, 0x00, 0x01, 0x00, 0x00, 0x00, 0x04, 0x00, 0x04, 0x00,
  0x04, 0x00, 0x00, 0x00, 0x19, 0x00, 0x00, 0x00, 0x73, 0x65, 0x72, 0x76,
  0x69, 0x6e, 0x67, 0x5f, 0x64, 0x65, 0x66, 0x61, 0x75, 0x6c, 0x74, 0x5f,
  0x69, 0x6e, 0x70, 0x75, 0x74, 0x5f, 0x32, 0x3a, 0x30, 0x00, 0x00, 0x00,
  0x04, 0x00, 0x00, 0x00, 0x01, 0x00, 0x00, 0x00, 0x01, 0x00, 0x00, 0x00,
  0x40, 0x00, 0x00, 0x00, 0x01, 0x00, 0x00, 0x00, 0x07, 0x00, 0x00, 0x00,
  0x90, 0x00, 0x00, 0x00, 0x70, 0x00, 0x00, 0x00, 0x50, 0x00, 0x00, 0x00,
  0x40, 0x00, 0x00, 0x00, 0x2c, 0x00, 0x00, 0x00, 0x18, 0x00, 0x00, 0x00,
  0x04, 0x00, 0x00, 0x00, 0xb4, 0xff, 0xff, 0xff, 0x06, 0x00, 0x00, 0x00,
  0x02, 0x00, 0x00, 0x00, 0x00, 0x00, 0x00, 0x06, 0xc4, 0xff, 0xff, 0xff,
  0x0e, 0x00, 0x00, 0x00, 0x02, 0x00, 0x00, 0x00, 0x00, 0x00, 0x00, 0x0e,
  0xd4, 0xff, 0xff, 0xff, 0x09, 0x00, 0x00, 0x00, 0x04, 0x00, 0x00, 0x00,
  0x00, 0x00, 0x00, 0x09, 0xc8, 0xff, 0xff, 0xff, 0x16, 0x00, 0x00, 0x00,
  0x00, 0x00, 0x00, 0x16, 0xf0, 0xff, 0xff, 0xff, 0x11, 0x00, 0x00, 0x00,
  0x02, 0x00, 0x00, 0x00, 0x00, 0x00, 0x00, 0x11, 0x0c, 0x00, 0x10, 0x00,
  0x0f, 0x00, 0x00, 0x00, 0x08, 0x00, 0x04, 0x00, 0x0c, 0x00, 0x00, 0x00,
  0x03, 0x00, 0x00, 0x00, 0x03, 0x00, 0x00, 0x00, 0x00, 0x00, 0x00, 0x03,
  0x0c, 0x00, 0x0c, 0x00, 0x0b, 0x00, 0x00, 0x00, 0x00, 0x00, 0x04, 0x00,
  0x0c, 0x00, 0x00, 0x00, 0x72, 0x00, 0x00, 0x00, 0x00, 0x00, 0x00, 0x72
};
unsigned int model_tflite_len = 5688;